FFC6
FF84
0040
00FB
FF49
00B7
0009
00FD
FF68
00B4
0052
FF6A
FF3A
FEE5
003A
00F1
00AF
0151
FFEB
FF0A
0080
FE88
00D6
FF8E
0011
010A
FF83
FE9A
003B
FE01
00D6
008E
00AC
0113
000C
FE73
FFF8
01BA
FF52
001E
000F
0160
0057
FEB6
FFD8
0106
FF9C
00F9
0111
FECA
FFB2
FFB1
0017
FF06
008E
0137
0144
FF8A
007E
FEC2
004C
FE6D
0003
0137
