0192
02D8
FFB3
0188
FDEB
FD43
FE4E
FF5F
FDA1
0175
FE84
0268
FD63
01BD
FE0B
013C
008F
0133
0110
0081
000D
FEBC
0036
FE7A
FFBB
0100
00F1
00F5
FE86
FF67
FEDB
FE89
001D
01AA
020A
0057
007B
FF14
0093
FE59
0020
0124
0190
009E
FDF9
FF0E
FEE3
FEAE
FE6A
022E
020C
FEB4
0252
FDFB
0219
FDAC
023C
0257
01BE
01C6
FDD9
FDC0
FD5E
FDDC
0225
0285
FF12
0203
FE1C
0038
FE34
02C4
FDD7
FE91
FE78
00D7
FF24
032D
FDC5
0208
011C
0004
FF8E
015E
FE09
0170
FE94
02A4
FE70
FE1E
FE78
FF5F
0091
025A
FF8F
01D7
FDB3
FE49
FE7A
FE3B
0279
FDE2
028E
FE2F
0216
025E
00E4
00F3
012C
FD99
013E
FF49
FDD8
0338
02FE
FE45
0218
FD42
028B
FDBD
0221
02A2
0225
02A1
FCE7
FCC9
FD74
FD60
